#include "mon_modele_data.h"

const unsigned char mon_modele_data[] = {
  0x20, 0x00, 0x00, 0x00, 0x54, 0x46, 0x4C, 0x33, 0x00, 0x00, 0x00, 0x00, 0x14, 0x00, 0x20, 0x00, 0x1C, 0x00, 0x18, 0x00, 0x14, 0x00, 0x10, 0x00, 0x0C, 0x00, 0x00, 0x00, 0x08, 0x00, 0x04, 0x00, 0x14, 0x00, 0x00, 0x00, 0x1C, 0x00, 0x00, 0x00, 0x90, 0x00, 0x00, 0x00, 0xE8, 0x00, 0x00, 0x00, 0x14, 0x14, 0x00, 0x00, 0x24, 0x14, 0x00, 0x00, 0x30, 0x1A, 0x00, 0x00, 0x03, 0x00, 0x00, 0x00, 0x01, 0x00, 0x00, 0x00, 0x10, 0x00, 0x00, 0x00, 0x00, 0x00, 0x0A, 0x00, 0x10, 0x00, 0x0C, 0x00, 0x08, 0x00, 0x04, 0x00, 0x0A, 0x00, 0x00, 0x00, 0x0C, 0x00, 0x00, 0x00, 0x1C, 0x00, 0x00, 0x00, 0x38, 0x00, 0x00, 0x00, 0x0F, 0x00, 0x00, 0x00, 0x73, 0x65, 0x72, 0x76, 0x69, 0x6E, 0x67, 0x5F, 0x64, 0x65, 0x66, 0x61, 0x75, 0x6C, 0x74, 0x00, 0x01, 0x00, 0x00, 0x00, 0x04, 0x00, 0x00, 0x00, 0x98, 0xFF, 0xFF, 0xFF, 0x0A, 0x00, 0x00, 0x00, 0x04, 0x00, 0x00, 0x00, 0x07, 0x00, 0x00, 0x00, 0x64, 0x65, 0x6E, 0x73, 0x65, 0x5F, 0x32, 0x00, 0x01, 0x00, 0x00, 0x00, 0x04, 0x00, 0x00, 0x00, 0xCE, 0xEB, 0xFF, 0xFF, 0x04, 0x00, 0x00, 0x00, 0x0B, 0x00, 0x00, 0x00, 0x64, 0x65, 0x6E, 0x73, 0x65, 0x5F, 0x69, 0x6E, 0x70, 0x75, 0x74, 0x00, 0x02, 0x00, 0x00, 0x00, 0x34, 0x00, 0x00, 0x00, 0x04, 0x00, 0x00, 0x00, 0xDC, 0xFF, 0xFF, 0xFF, 0x0D, 0x00, 0x00, 0x00, 0x04, 0x00, 0x00, 0x00, 0x13, 0x00, 0x00, 0x00, 0x43, 0x4F, 0x4E, 0x56, 0x45, 0x52, 0x53, 0x49, 0x4F, 0x4E, 0x5F, 0x4D, 0x45, 0x54, 0x41, 0x44, 0x41, 0x54, 0x41, 0x00, 0x08, 0x00, 0x0C, 0x00, 0x08, 0x00, 0x04, 0x00, 0x08, 0x00, 0x00, 0x00, 0x0C, 0x00, 0x00, 0x00, 0x04, 0x00, 0x00, 0x00, 0x13, 0x00, 0x00, 0x00, 0x6D, 0x69, 0x6E, 0x5F, 0x72, 0x75, 0x6E, 0x74, 0x69, 0x6D, 0x65, 0x5F, 0x76, 0x65, 0x72, 0x73, 0x69, 0x6F, 0x6E, 0x00, 0x0E, 0x00, 0x00, 0x00, 0x28, 0x13, 0x00, 0x00, 0x20, 0x13, 0x00, 0x00, 0x90, 0x10, 0x00, 0x00, 0x00, 0x10, 0x00, 0x00, 0xDC, 0x0F, 0x00, 0x00, 0xCC, 0x0E, 0x00, 0x00, 0xBC, 0x08, 0x00, 0x00, 0xAC, 0x00, 0x00, 0x00, 0xA4, 0x00, 0x00, 0x00, 0x9C, 0x00, 0x00, 0x00, 0x94, 0x00, 0x00, 0x00, 0x8C, 0x00, 0x00, 0x00, 0x6C, 0x00, 0x00, 0x00, 0x04, 0x00, 0x00, 0x00, 0x7E, 0xEC, 0xFF, 0xFF, 0x04, 0x00, 0x00, 0x00, 0x58, 0x00, 0x00, 0x00, 0x0C, 0x00, 0x00, 0x00, 0x08, 0x00, 0x0E, 0x00, 0x08, 0x00, 0x04, 0x00, 0x08, 0x00, 0x00, 0x00, 0x10, 0x00, 0x00, 0x00, 0x28, 0x00, 0x00, 0x00, 0x00, 0x00, 0x06, 0x00, 0x08, 0x00, 0x04, 0x00, 0x06, 0x00, 0x00, 0x00, 0x04, 0x00, 0x00, 0x00, 0x01, 0x00, 0x00, 0x00, 0xEA, 0x03, 0x00, 0x00, 0x00, 0x00, 0x0A, 0x00, 0x10, 0x00, 0x0C, 0x00, 0x08, 0x00, 0x04, 0x00, 0x0A, 0x00, 0x00, 0x00, 0x02, 0x00, 0x00, 0x00, 0x02, 0x00, 0x00, 0x00, 0x04, 0x00, 0x00, 0x00, 0x06, 0x00, 0x00, 0x00, 0x32, 0x2E, 0x31, 0x30, 0x2E, 0x30, 0x00, 0x00, 0xE2, 0xEC, 0xFF, 0xFF, 0x04, 0x00, 0x00, 0x00, 0x10, 0x00, 0x00, 0x00, 0x32, 0x2E, 0x33, 0x2E, 0x30, 0x00, 0x00, 0x00, 0x00, 0x00, 0x00, 0x00, 0x00, 0x00, 0x00, 0x00, 0xA0, 0xE7, 0xFF, 0xFF, 0xA4, 0xE7, 0xFF, 0xFF, 0xA8, 0xE7, 0xFF, 0xFF, 0xAC, 0xE7, 0xFF, 0xFF, 0x0E, 0xED, 0xFF, 0xFF, 0x04, 0x00, 0x00, 0x00, 0x00, 0x08, 0x00, 0x00, 0xF1, 0x07, 0x0D, 0xD8, 0xD0, 0x28, 0x51, 0xCE, 0x47, 0xF9, 0x1C, 0xEF, 0x21, 0x10, 0xE4, 0xF4, 0x37, 0x37, 0xE6, 0xC8, 0xD4, 0xFC, 0x33, 0xD8, 0xBE, 0xD7, 0x18, 0xC3, 0xF1, 0x28, 0x4A, 0x46, 0xDB, 0xF0, 0x46, 0xF6, 0x1C, 0xD7, 0xF1, 0x24, 0xF8, 0x25, 0xFD, 0x33, 0x06, 0x18, 0x2F, 0x28, 0xDD, 0x2F, 0xC1, 0x33, 0x29, 0xD8, 0x20, 0xB3, 0xDC, 0xE0, 0xB7, 0xEB, 0xF4, 0xE6, 0xF7, 0xC5, 0x0E, 0xDB, 0x26, 0xFD, 0xDA, 0x30, 0xED, 0x11, 0xFC, 0x09, 0xFD, 0x05, 0x21, 0x06, 0x36, 0xCD, 0xFB, 0xF3, 0xF1, 0x36, 0x2F, 0x2E, 0xE7, 0x20, 0x24, 0x42, 0x00, 0x2B, 0x3E, 0x2E, 0x1C, 0x00, 0x15, 0xE7, 0xD4, 0x01, 0x1A, 0x1B, 0x22, 0x39, 0xEC, 0xE5, 0x10, 0xCD, 0x50, 0xE2, 0xD9, 0xE3, 0x12, 0x30, 0xF0, 0xED, 0xF9, 0x20, 0x16, 0x16, 0x1D, 0x0D, 0xE4, 0x30, 0xE5, 0x27, 0x10, 0x2F, 0x5F, 0x50, 0x06, 0x2F, 0x14, 0x18, 0x16, 0xD7, 0x1C, 0x12, 0xE4, 0x29, 0x16, 0x0A, 0xD3, 0x56, 0xE3, 0x39, 0x58, 0xDF, 0xE3, 0x2E, 0xDB, 0x2F, 0x14, 0x0D, 0x21, 0x1F, 0xE7, 0xF6, 0xE2, 0x2C, 0x46, 0x0B, 0xEB, 0x31, 0x24, 0xEF, 0x0D, 0x06, 0x0B, 0x11, 0x02, 0x41, 0xFA, 0xF1, 0xD5, 0xFE, 0x05, 0xD3, 0xE9, 0x1B, 0x15, 0x4A, 0x3D, 0x25, 0x32, 0x3F, 0x53, 0x30, 0x1E, 0x4C, 0x1D, 0x40, 0x21, 0x33, 0xE5, 0x13, 0x10, 0x06, 0x1D, 0xC7, 0xF9, 0xF4, 0x3E, 0xF8, 0x1F, 0xED, 0x1E, 0x23, 0xF9, 0x0E, 0x2A, 0xF3, 0xEF, 0xB8, 0x10, 0x2A, 0x00, 0xDC, 0x0F, 0x15, 0xCC, 0x2C, 0x2B, 0x39, 0x22, 0x07, 0x4E, 0xE3, 0x05, 0xF0, 0x2A, 0x29, 0x35, 0xE5, 0x33, 0x31, 0xF3, 0xE1, 0x3A, 0x33, 0xC5, 0xCD, 0x03, 0x38, 0xFB, 0x18, 0x0E, 0xBC, 0x12, 0xEB, 0xFC, 0x30, 0x16, 0xFF, 0xDE, 0x30, 0xFD, 0x1A, 0x9A, 0x19, 0x10, 0xB5, 0x31, 0x21, 0xDD, 0x43, 0xEA, 0x22, 0xCE, 0x2E, 0x0D, 0xEF, 0x24, 0x0B, 0x2B, 0xA6, 0xB0, 0x23, 0x12, 0xEC, 0xFC, 0x2D, 0xE3, 0xBF, 0xD7, 0x1B, 0x33, 0xF4, 0x0C, 0xDB, 0xCC, 0xDF, 0x03, 0x0D, 0xDB, 0x07, 0x3D, 0x25, 0xE0, 0x21, 0xAF, 0xE0, 0xC7, 0x0E, 0x31, 0xA9, 0xD1, 0x34, 0xE9, 0x0F, 0xEA, 0x11, 0xEF, 0xAA, 0x26, 0x2D, 0xFA, 0xC4, 0xE1, 0x3D, 0x22, 0x07, 0x0B, 0x6D, 0x50, 0xEF, 0x19, 0xC7, 0xFF, 0xCF, 0xF8, 0x45, 0xFC, 0xD5, 0x31, 0x38, 0xE2, 0x1D, 0x17, 0xE5, 0xF4, 0xD1, 0xB9, 0xF8, 0xD5, 0x06, 0xE2, 0x17, 0x0B, 0x05, 0x11, 0x12, 0x02, 0x0D, 0x57, 0xF0, 0x34, 0xDE, 0x21, 0xCA, 0x02, 0x19, 0x1B, 0x41, 0xCF, 0xF6, 0xF5, 0x14, 0xD9, 0xE0, 0x25, 0x48, 0x07, 0x21, 0x00, 0xE0, 0xF7, 0xDC, 0xF1, 0x30, 0x3E, 0x1B, 0x0F, 0xE8, 0xB8, 0xA9, 0xC0, 0xFF, 0xCB, 0xFC, 0x36, 0x07, 0x4F, 0x58, 0x05, 0x9E, 0x16, 0x28, 0x0D, 0xC9, 0x3C, 0xFE, 0xE1, 0xCD, 0x10, 0xDA, 0x39, 0xDF, 0xAC, 0xDA, 0x0E, 0xDC, 0xC7, 0xE3, 0x24, 0x52, 0xE6, 0x06, 0xD3, 0xD3, 0x05, 0xA1, 0xDC, 0xFE, 0x26, 0x01, 0xA6, 0x1A, 0x81, 0x55, 0xE4, 0x08, 0xF7, 0xFF, 0x05, 0x2C, 0x3E, 0xD6, 0xAB, 0x02, 0xE0, 0x07, 0xA6, 0x13, 0xB6, 0xA2, 0xD6, 0x41, 0x29, 0xE6, 0x03, 0x1A, 0xCD, 0x14, 0x26, 0x27, 0xC9, 0x09, 0xF2, 0xE4, 0xE0, 0x18, 0x16, 0xC5, 0xF6, 0x29, 0x1F, 0x19, 0xEF, 0x57, 0x22, 0x25, 0x00, 0xF0, 0xD0, 0xE4, 0xE0, 0xF3, 0xDA, 0xDA, 0xF8, 0xB8, 0xC5, 0x0C, 0x0B, 0xEF, 0xED, 0xCB, 0xE7, 0x22, 0x29, 0xF0, 0x3E, 0xF1, 0x2C, 0xC5, 0x44, 0x19, 0x18, 0xEA, 0xED, 0xB7, 0x1B, 0x12, 0xD2, 0x15, 0x1A, 0xD9, 0x98, 0x31, 0x21, 0xC4, 0x0F, 0xE8, 0x18, 0xA9, 0xDA, 0xFC, 0x3A, 0x18, 0x0A, 0x35, 0x3F, 0xC0, 0xEF, 0xE4, 0x21, 0xF7, 0x32, 0x12, 0xDF, 0xF9, 0x3D, 0x08, 0x04, 0xE2, 0xE8, 0xE5, 0x1F, 0x3E, 0xF2, 0xDD, 0x45, 0xFA, 0xF0, 0xAF, 0xDE, 0xDE, 0xF8, 0x3A, 0x23, 0x1D, 0xAA, 0xFD, 0x3C, 0xF7, 0x3D, 0x07, 0x1C, 0xBE, 0x2A, 0x03, 0x37, 0x11, 0x3E, 0xFA, 0xE1, 0xF5, 0xFE, 0xFB, 0x11, 0x26, 0xC9, 0xC6, 0x24, 0xFD, 0xA0, 0xEC, 0xE7, 0x1B, 0xF6, 0x2B, 0xE5, 0xCB, 0xC5, 0x3A, 0xD6, 0xEA, 0x41, 0xE5, 0x2B, 0x12, 0x33, 0x0B, 0x18, 0xF0, 0xE0, 0x33, 0xD7, 0xEA, 0xFE, 0x0A, 0x1B, 0xCE, 0x24, 0x31, 0xEE, 0x2A, 0xB3, 0x06, 0xCF, 0xDD, 0x03, 0xCF, 0x36, 0xA4, 0x1E, 0x0D, 0xD6, 0xF2, 0x36, 0xD4, 0xFD, 0x21, 0xED, 0x03, 0xF3, 0xF5, 0xDF, 0xED, 0xC2, 0x34, 0x06, 0xF4, 0xE5, 0x20, 0x26, 0xDE, 0xA2, 0x34, 0xD7, 0xFE, 0xF2, 0xDF, 0x2D, 0xC1, 0xD8, 0xE0, 0x0D, 0x39, 0xDB, 0x20, 0x13, 0xC5, 0xDE, 0xED, 0x00, 0x0E, 0xC9, 0xD8, 0xCE, 0x0A, 0x2F, 0xB0, 0xB2, 0x32, 0xB4, 0xD3, 0x02, 0x39, 0x9B, 0xDE, 0x04, 0x33, 0x3B, 0x0C, 0xED, 0xDC, 0xDE, 0xDC, 0x02, 0xE9, 0x22, 0x2A, 0x34, 0xE5, 0xE3, 0xEB, 0x1C, 0x1A, 0x33, 0x10, 0xF3, 0xD1, 0xE5, 0x29, 0x00, 0xEA, 0x19, 0x04, 0x14, 0xC5, 0xCE, 0xDD, 0x04, 0xCE, 0xFC, 0x43, 0x21, 0xFE, 0xD1, 0xDB, 0xEF, 0xF1, 0xDB, 0x3C, 0x16, 0xDD, 0x0A, 0x1A, 0xD0, 0x12, 0xB9, 0xEA, 0xF4, 0x06, 0xC7, 0x1E, 0x0A, 0x00, 0xA6, 0x11, 0xF5, 0x1C, 0x8D, 0x1C, 0xFF, 0xF3, 0xFB, 0x17, 0x02, 0xE7, 0xDB, 0xEE, 0x3C, 0xEB, 0x0B, 0x00, 0x0D, 0xFB, 0x06, 0xE9, 0xFF, 0xDE, 0x3A, 0x3C, 0x04, 0xF6, 0x1E, 0xF2, 0xDA, 0xE6, 0xFF, 0x2F, 0x17, 0x00, 0xF8, 0x2F, 0xFE, 0xEF, 0x31, 0x29, 0xFB, 0x20, 0xFA, 0x19, 0xD1, 0x05, 0x4A, 0xD3, 0x1A, 0x06, 0x20, 0xBB, 0x0B, 0x0C, 0xF9, 0x28, 0xE4, 0x1A, 0xFD, 0x28, 0xE3, 0xFD, 0x3E, 0x0B, 0xE8, 0xEE, 0x2D, 0x0B, 0xE8, 0xFA, 0x57, 0x19, 0xEF, 0x20, 0x2E, 0xF4, 0x07, 0xD1, 0x1C, 0x2D, 0xED, 0x08, 0x53, 0x22, 0xE5, 0x29, 0x02, 0xDE, 0x14, 0xCB, 0x2F, 0xDA, 0x33, 0xF5, 0xE6, 0xFA, 0xEC, 0x19, 0xFE, 0xCB, 0xE7, 0xC8, 0x2D, 0x58, 0x46, 0x3D, 0xDD, 0xEA, 0x00, 0xDC, 0xE6, 0xEB, 0x03, 0xFB, 0xFA, 0x35, 0x10, 0xF5, 0x33, 0xDC, 0x16, 0x16, 0x00, 0xCC, 0x14, 0x1E, 0xDA, 0xE5, 0x34, 0x63, 0xAF, 0xFB, 0xDE, 0x4C, 0x27, 0x29, 0xE5, 0xC2, 0x33, 0xCE, 0x30, 0x0D, 0xF1, 0x27, 0x1B, 0xE0, 0xF2, 0x35, 0xFC, 0x29, 0x28, 0x1B, 0xD8, 0xF7, 0xB5, 0x30, 0x12, 0x08, 0x01, 0x35, 0xFC, 0x42, 0xF2, 0x12, 0x09, 0xD9, 0xFE, 0x2C, 0x06, 0x11, 0xEC, 0x1D, 0xBA, 0x49, 0xB0, 0xF3, 0xE8, 0x0F, 0x14, 0xEF, 0xF2, 0xFF, 0xF9, 0x2B, 0xE2, 0x07, 0x10, 0xDA, 0xD9, 0x00, 0xC9, 0x03, 0x09, 0xFD, 0x07, 0xF1, 0xDC, 0x01, 0x2A, 0xED, 0x16, 0xF4, 0xBD, 0x21, 0x40, 0x16, 0xF1, 0xF8, 0x24, 0x28, 0xFD, 0x0E, 0x13, 0xEB, 0x0E, 0x12, 0xFE, 0x3B, 0x07, 0x31, 0x1D, 0xDB, 0x19, 0x13, 0xEC, 0xE9, 0xC8, 0x0D, 0x16, 0xC1, 0x0A, 0xB8, 0x1A, 0x51, 0xCA, 0x3A, 0x29, 0x12, 0x17, 0xFD, 0x35, 0x1B, 0x29, 0x18, 0x1A, 0xD0, 0x09, 0x5E, 0xEF, 0xE8, 0xE3, 0x2F, 0x4C, 0x36, 0xDF, 0x3C, 0x2A, 0x38, 0x21, 0x3A, 0xFD, 0x21, 0xEB, 0x21, 0xEC, 0xEE, 0x1C, 0x42, 0x09, 0xFB, 0xFF, 0xD1, 0x19, 0xF8, 0x06, 0x0A, 0x3B, 0x20, 0xEA, 0xFF, 0xD5, 0xD5, 0x18, 0x19, 0xE1, 0xFF, 0xDD, 0xFF, 0x02, 0xE9, 0x0D, 0xE6, 0x1D, 0x1D, 0x21, 0x2F, 0x25, 0x1B, 0x25, 0xF6, 0xD8, 0x10, 0x03, 0x18, 0x3D, 0xCF, 0x08, 0xFE, 0x37, 0x1C, 0x08, 0x2E, 0xF8, 0xC9, 0xF5, 0x1B, 0xD9, 0x08, 0xD1, 0xFD, 0x28, 0x0F, 0xFD, 0x2E, 0x03, 0x4D, 0xF7, 0x1F, 0xD9, 0xF8, 0x14, 0x41, 0x2E, 0xF6, 0xD5, 0xFF, 0x35, 0x27, 0xC8, 0x5E, 0xDD, 0x2E, 0xE9, 0x04, 0xC5, 0xF2, 0x0D, 0xF8, 0x00, 0x50, 0xE5, 0x0B, 0x07, 0x2B, 0xD3, 0x2F, 0x15, 0x0A, 0xBD, 0xDD, 0xD4, 0xDA, 0x41, 0xC3, 0xF2, 0x2B, 0xC6, 0x19, 0x00, 0x2E, 0xDA, 0x2D, 0x23, 0x49, 0x02, 0xAF, 0xD3, 0xFB, 0x52, 0x1A, 0xE2, 0xFC, 0xE1, 0xD5, 0x09, 0x6D, 0x36, 0x3C, 0xCF, 0x32, 0x18, 0x3B, 0xD9, 0x02, 0xF2, 0x0A, 0x54, 0xD4, 0xBD, 0x12, 0xC7, 0x19, 0xDE, 0x5F, 0xCF, 0xF5, 0xA2, 0x0E, 0x25, 0x02, 0xE2, 0x10, 0xC5, 0x1C, 0xFC, 0xEF, 0x0F, 0x09, 0xF2, 0x06, 0x31, 0x22, 0xDC, 0xFA, 0x1F, 0x13, 0x01, 0x36, 0x10, 0x09, 0x4D, 0xBB, 0x1E, 0xEB, 0xEA, 0xC2, 0xF7, 0xD4, 0xED, 0x15, 0x22, 0xF5, 0xFC, 0x3C, 0x04, 0xD2, 0x38, 0xF1, 0x05, 0x2E, 0x34, 0x1C, 0x24, 0x0F, 0xF7, 0xD7, 0xEB, 0xF9, 0xF4, 0x2B, 0xC9, 0xB7, 0xDE, 0xCB, 0x26, 0x47, 0x16, 0xF8, 0x24, 0x05, 0x2B, 0x0B, 0x09, 0xE9, 0x20, 0xC5, 0x3D, 0xFE, 0x19, 0xF8, 0xFD, 0xFD, 0x1A, 0x11, 0xD2, 0xF6, 0x35, 0x3F, 0x28, 0x14, 0xE4, 0x39, 0xF9, 0x0D, 0x1E, 0x47, 0x2B, 0xDE, 0xFD, 0x2A, 0x02, 0xDE, 0xF5, 0xFF, 0xE3, 0x0F, 0xE1, 0x17, 0xFA, 0x15, 0xC6, 0xBE, 0x16, 0x33, 0xD2, 0xF7, 0xE1, 0x42, 0xF0, 0x50, 0xEE, 0xBB, 0x21, 0xDF, 0x5D, 0xFF, 0x19, 0x05, 0x41, 0xDE, 0xE9, 0x09, 0x15, 0x1A, 0xE8, 0x0B, 0x05, 0x10, 0xF9, 0x17, 0x04, 0x11, 0xFD, 0x2C, 0x20, 0x30, 0xF0, 0x0D, 0x82, 0x16, 0xE7, 0x42, 0x0E, 0x40, 0xDF, 0x03, 0x06, 0x3B, 0xCA, 0xFC, 0x01, 0x0B, 0x34, 0xD0, 0x16, 0x34, 0xF1, 0xA0, 0xC8, 0x07, 0xD3, 0xF3, 0x47, 0x03, 0xD6, 0xBD, 0x28, 0x1D, 0xE2, 0x08, 0xBE, 0xE5, 0xD2, 0x00, 0xE7, 0x0F, 0x4B, 0xCC, 0x24, 0x1E, 0xA3, 0xB0, 0x20, 0xE4, 0xE9, 0x0D, 0x0E, 0xFC, 0x22, 0x0A, 0xFA, 0x1F, 0xE0, 0x25, 0xBD, 0xFF, 0x12, 0xE1, 0x19, 0x01, 0xD5, 0x11, 0x28, 0xBE, 0xEC, 0xE7, 0x16, 0x0B, 0x43, 0xDB, 0x26, 0x19, 0xD2, 0xEB, 0x00, 0x29, 0x13, 0xEB, 0xFC, 0xF1, 0x07, 0x24, 0x34, 0x18, 0xD3, 0xF7, 0xF8, 0x1F, 0xF5, 0x19, 0x0E, 0xDF, 0xDE, 0xF5, 0xF6, 0xD0, 0xE7, 0xE8, 0xFD, 0xF7, 0x30, 0x1A, 0x14, 0x00, 0x32, 0xBD, 0xC5, 0xF0, 0x17, 0xE3, 0xDB, 0xC5, 0xD2, 0x0D, 0x00, 0x2B, 0x05, 0xF9, 0xFD, 0xCB, 0x15, 0x0F, 0xD8, 0x23, 0xE2, 0x2D, 0x18, 0xE3, 0x45, 0x1B, 0x32, 0xC9, 0xF4, 0x47, 0xE2, 0x01, 0xD1, 0xF0, 0x2B, 0xC7, 0xE4, 0x26, 0xDB, 0xD9, 0xEA, 0x2F, 0x05, 0xFD, 0x43, 0x1A, 0xDF, 0x2F, 0xD0, 0x4E, 0xDA, 0x1D, 0xD4, 0xFA, 0x12, 0xDE, 0xC8, 0xE5, 0x03, 0x36, 0xE4, 0x4B, 0x0B, 0x52, 0x27, 0xBC, 0xFF, 0x1A, 0xC2, 0xC3, 0xFC, 0x2A, 0x13, 0xE0, 0x3A, 0x0B, 0xC7, 0x29, 0xEA, 0x06, 0xD8, 0xFE, 0x3C, 0xB7, 0x49, 0xD9, 0xC9, 0xC9, 0x55, 0xED, 0xFA, 0x58, 0x04, 0x09, 0xD6, 0x2E, 0x30, 0x0F, 0x29, 0xE0, 0x15, 0x07, 0x0F, 0x01, 0x10, 0x42, 0x47, 0x33, 0x13, 0xF9, 0x0D, 0x33, 0xC5, 0x1D, 0x30, 0xF0, 0xF5, 0x3C, 0xE1, 0x27, 0xE5, 0xFE, 0x03, 0x4C, 0x11, 0xDB, 0xF6, 0xE5, 0xD6, 0xDA, 0x53, 0x30, 0xF8, 0xEF, 0x14, 0x46, 0x17, 0xC1, 0xD8, 0x35, 0xF4, 0x05, 0xE3, 0x39, 0x2C, 0x1D, 0xD7, 0xDD, 0x3A, 0x3E, 0x23, 0x2C, 0xCA, 0x1B, 0xE2, 0xD0, 0xDF, 0xD4, 0x3C, 0xD8, 0x02, 0x27, 0xA2, 0xE8, 0x98, 0x06, 0xBE, 0xF1, 0xE9, 0x28, 0x22, 0x0D, 0x03, 0xF8, 0x18, 0x0D, 0x26, 0x18, 0xD6, 0xF8, 0x01, 0x09, 0x01, 0xDA, 0xD4, 0x0B, 0x13, 0xD7, 0xFF, 0xD8, 0x35, 0x32, 0x1E, 0x51, 0x25, 0x02, 0xBE, 0x17, 0xE0, 0xF5, 0x19, 0xD9, 0xE2, 0xFA, 0x09, 0x1A, 0xE1, 0x06, 0x1B, 0x4C, 0x18, 0xE3, 0xDF, 0x3A, 0x1B, 0xED, 0xBE, 0xFB, 0xFD, 0xC1, 0x19, 0x44, 0xE2, 0x16, 0xFE, 0x00, 0x10, 0xE9, 0x21, 0x28, 0x27, 0xD0, 0x1D, 0xE1, 0xEF, 0x33, 0x46, 0x09, 0xE1, 0x56, 0x16, 0x22, 0xFB, 0xD5, 0xCC, 0xC8, 0x09, 0xFC, 0x2B, 0xCA, 0x04, 0x55, 0xC8, 0xAB, 0xCF, 0x4F, 0x20, 0xC5, 0xC0, 0xEF, 0xF2, 0xDB, 0x25, 0xC0, 0x3F, 0x1A, 0x02, 0x34, 0x37, 0x5E, 0xBE, 0xCD, 0x22, 0x26, 0x0B, 0xDF, 0x07, 0x18, 0xF7, 0x1D, 0x0C, 0x02, 0xFC, 0x30, 0x08, 0xF5, 0xFB, 0xFF, 0x4F, 0x5C, 0x53, 0xDB, 0x3E, 0x0F, 0x11, 0xE0, 0x33, 0xD3, 0xEA, 0x30, 0xF8, 0x38, 0x13, 0xE3, 0xE9, 0xD9, 0x3F, 0x3D, 0x19, 0x44, 0xDA, 0x17, 0x25, 0x0A, 0xCA, 0xE1, 0x38, 0x25, 0xED, 0xE1, 0xCF, 0xD8, 0x1F, 0x17, 0x0F, 0x63, 0x19, 0x12, 0xC4, 0xDB, 0xFB, 0x22, 0xF1, 0x1D, 0x03, 0x3F, 0xD4, 0x0F, 0xE2, 0xF5, 0xF0, 0x01, 0xDE, 0xDE, 0x02, 0xD4, 0x14, 0xE1, 0x25, 0xF7, 0x4A, 0x39, 0xFA, 0xCB, 0x0D, 0x16, 0xDF, 0xB7, 0x34, 0xE7, 0x1D, 0x98, 0xEB, 0xCE, 0x1C, 0xD8, 0xCD, 0xBA, 0x08, 0xFE, 0xF1, 0x2F, 0x02, 0x3C, 0x0C, 0x25, 0x30, 0xD9, 0xC1, 0xC7, 0xF2, 0x20, 0xE6, 0xF9, 0x84, 0x2F, 0xF3, 0xF4, 0x26, 0x0D, 0xBE, 0x17, 0xEF, 0x07, 0x3E, 0xF0, 0xDA, 0x99, 0xB8, 0xF7, 0xCA, 0x08, 0xB7, 0x03, 0xEB, 0xD8, 0x1C, 0x28, 0x44, 0x08, 0xFB, 0x50, 0xD1, 0x43, 0xD5, 0x00, 0x25, 0x28, 0x09, 0xFE, 0x1B, 0x36, 0x0E, 0x32, 0x46, 0x08, 0x5F, 0x11, 0x27, 0x40, 0x2B, 0xEE, 0x12, 0x52, 0x38, 0x25, 0x2B, 0x02, 0x32, 0xFD, 0x09, 0xF5, 0x3E, 0x4E, 0x40, 0x1C, 0x08, 0xFF, 0x05, 0x23, 0x49, 0x1A, 0xF8, 0x0C, 0x35, 0x1E, 0x1A, 0x0D, 0xEF, 0xE8, 0x6D, 0x2A, 0x5E, 0x25, 0x0C, 0x24, 0x0E, 0x4D, 0x44, 0x33, 0xEA, 0x1C, 0x20, 0x1D, 0xF6, 0xC2, 0x19, 0xD5, 0xEA, 0x1E, 0xFF, 0xB7, 0xF9, 0x4A, 0xCD, 0x02, 0x3B, 0xF4, 0x06, 0x0E, 0x1E, 0xBE, 0x20, 0xE9, 0x0C, 0x06, 0x44, 0xDC, 0x27, 0x20, 0x33, 0x0F, 0x42, 0x04, 0x4D, 0x05, 0x12, 0xE9, 0xF1, 0x0B, 0xE3, 0xAB, 0x1D, 0x2B, 0xE0, 0x1C, 0x27, 0x20, 0xEF, 0xF6, 0x03, 0x33, 0x0A, 0xDA, 0x4D, 0x12, 0x36, 0xE1, 0x1F, 0xD9, 0x12, 0x13, 0xD8, 0xEA, 0x47, 0x26, 0xEA, 0xEA, 0x0E, 0xBB, 0x24, 0x01, 0x2A, 0x06, 0x33, 0xE5, 0x19, 0x4D, 0x1A, 0x1A, 0x3D, 0x36, 0xD1, 0x32, 0x4A, 0x27, 0x1E, 0xF5, 0xEB, 0x4D, 0x47, 0x19, 0x03, 0xBE, 0x45, 0x24, 0x44, 0xFB, 0x36, 0xF0, 0xF2, 0x2A, 0x1B, 0xEC, 0xEB, 0x12, 0x1C, 0x21, 0x15, 0x05, 0x10, 0xD7, 0xEF, 0xF3, 0x25, 0x43, 0x63, 0x35, 0x27, 0xF0, 0xFB, 0xEF, 0x1A, 0x28, 0xF6, 0x13, 0x63, 0x1D, 0x36, 0x43, 0x16, 0x79, 0x0E, 0x09, 0x09, 0x0A, 0xE9, 0xC8, 0x50, 0x43, 0x27, 0x2C, 0x46, 0x0D, 0xCA, 0xF9, 0x76, 0x2C, 0x18, 0x47, 0x01, 0x61, 0x52, 0x33, 0x2A, 0x07, 0x47, 0x2F, 0x10, 0x1B, 0x5E, 0x64, 0x41, 0x69, 0x37, 0x19, 0x17, 0x14, 0x36, 0x2B, 0x2C, 0x47, 0x1C, 0xD9, 0x28, 0x3D, 0x1D, 0x4A, 0x01, 0x54, 0xD3, 0x52, 0x57, 0x3F, 0x3B, 0x37, 0x27, 0x14, 0x49, 0x32, 0x23, 0x5C, 0x1A, 0xF5, 0xFF, 0xFF, 0x04, 0x00, 0x00, 0x00, 0x00, 0x06, 0x00, 0x00, 0xCD, 0xC3, 0x33, 0x3D, 0xE9, 0xA6, 0x24, 0x3E, 0x62, 0x45, 0x4B, 0xBE, 0x9F, 0xC5, 0x04, 0xBF, 0xEE, 0x5F, 0x6F, 0x3E, 0x81, 0xCF, 0x9D, 0xBE, 0xD1, 0x34, 0x30, 0x3E, 0x39, 0x12, 0x83, 0xBC, 0x74, 0x85, 0xCA, 0x3E, 0x31, 0x2C, 0x29, 0xBE, 0x82, 0x79, 0x00, 0xBE, 0x0E, 0xAE, 0xCD, 0xBD, 0xFF, 0x52, 0x8F, 0xBC, 0x86, 0x0A, 0xDD, 0xBE, 0x95, 0x5E, 0x70, 0xBE, 0x2E, 0xCD, 0x50, 0xBD, 0x40, 0x7E, 0x65, 0x3E, 0xBA, 0x26, 0x0A, 0xBF, 0xEC, 0x35, 0x4C, 0xBE, 0x31, 0x86, 0x84, 0x3E, 0xDD, 0x53, 0x12, 0xBF, 0xC8, 0x41, 0x8F, 0x3E, 0xF5, 0x78, 0x70, 0x3E, 0x2A, 0xEC, 0x6E, 0xBC, 0xAD, 0x83, 0x9C, 0xBE, 0x98, 0xF3, 0x64, 0xBE, 0x7C, 0xD3, 0xC2, 0xBE, 0xE6, 0x9C, 0x99, 0xBE, 0x28, 0xD5, 0x53, 0xBB, 0x51, 0xC4, 0x73, 0xBD, 0x18, 0x09, 0xCA, 0xBE, 0xCD, 0xE9, 0xB9, 0xBE, 0xB2, 0xE4, 0x4E, 0x3E, 0x72, 0x36, 0x1C, 0x3D, 0x60, 0xA8, 0xEB, 0x3D, 0xAB, 0x51, 0xB8, 0x3E, 0xD7, 0x2A, 0x32, 0x3D, 0x1E, 0x46, 0xDC, 0xBD, 0x75, 0xDE, 0x00, 0x3F, 0x23, 0x2D, 0xA1, 0xBD, 0x0A, 0x8C, 0x14, 0x3E, 0x2A, 0x7C, 0x68, 0xBD, 0xD4, 0x55, 0xB0, 0x3E, 0xF8, 0x10, 0xE5, 0x3C, 0x1B, 0xA5, 0x46, 0xBC, 0x04, 0x94, 0xBF, 0xBC, 0x5A, 0xF5, 0x52, 0xBE, 0xDF, 0x61, 0xB9, 0xBE, 0xFD, 0xFD, 0xAB, 0x3D, 0x74, 0x54, 0x55, 0xBE, 0xA0, 0xC6, 0xAA, 0x3E, 0xC6, 0xE5, 0x37, 0x3E, 0x40, 0x83, 0x15, 0xBE, 0x6E, 0xB1, 0xF5, 0xBD, 0xC3, 0xF2, 0xE9, 0x3D, 0xCC, 0xAD, 0xBA, 0xBD, 0xFF, 0xE4, 0xE0, 0x3C, 0x32, 0x6C, 0x66, 0xBE, 0x68, 0xEA, 0xAC, 0x3E, 0x91, 0x1C, 0xA5, 0x3C, 0x3D, 0x71, 0xE1, 0x3E, 0x23, 0x26, 0xA9, 0xBE, 0x3E, 0xD2, 0xB5, 0xBD, 0xFD, 0x43, 0x92, 0x3E, 0xF7, 0x1E, 0xF4, 0x3D, 0xC4, 0x0A, 0x12, 0x3F, 0xA8, 0x4F, 0xBD, 0xBE, 0x22, 0x29, 0xAE, 0xBE, 0x0A, 0x58, 0x6F, 0x3E, 0x86, 0x08, 0xEC, 0x3E, 0x6B, 0x65, 0xD3, 0xBE, 0x8B, 0xF7, 0x4A, 0xBE, 0xB0, 0x4C, 0x83, 0xBE, 0xA1, 0xD1, 0x2B, 0xBE, 0x1D, 0xE9, 0xAB, 0xBC, 0xFE, 0xEC, 0x38, 0xBE, 0x19, 0x87, 0x60, 0xBE, 0x7B, 0xFA, 0x82, 0x3E, 0x32, 0x8A, 0x6E, 0x3E, 0x61, 0x32, 0x5E, 0xBE, 0x38, 0x57, 0xEE, 0x3E, 0xD0, 0x05, 0x7C, 0xBE, 0xB4, 0x12, 0xF0, 0x3D, 0x3D, 0x9E, 0xC1, 0x3C, 0x2A, 0x1F, 0x96, 0xBE, 0xB8, 0xA4, 0xC8, 0xBE, 0xF6, 0x75, 0x8C, 0xBD, 0x46, 0x02, 0x41, 0xBE, 0xA3, 0x59, 0xDB, 0xBD, 0x11, 0x86, 0xFB, 0x3E, 0xBB, 0x0A, 0x02, 0xBF, 0x7E, 0x27, 0x81, 0x3E, 0xA1, 0x1D, 0x3D, 0x3E, 0x03, 0xEC, 0x85, 0x3E, 0x0A, 0x19, 0x52, 0xBE, 0xEF, 0x5E, 0x19, 0xBE, 0xFD, 0xAB, 0xF1, 0x3D, 0xAA, 0x12, 0x08, 0xBE, 0x3B, 0x08, 0xC4, 0x3D, 0xD1, 0x7A, 0x7F, 0xBE, 0x26, 0x6D, 0xFA, 0xBD, 0x13, 0xED, 0x6D, 0x3E, 0x29, 0x4A, 0x1E, 0xBE, 0x25, 0x94, 0x34, 0x3E, 0x6A, 0x8D, 0xA0, 0x3E, 0xD2, 0x7B, 0x16, 0x3D, 0x86, 0x82, 0xB4, 0x3E, 0x30, 0xBE, 0x12, 0xBE, 0x6C, 0xB6, 0xC7, 0xBB, 0xAF, 0xBE, 0x44, 0xBE, 0x86, 0xB6, 0x87, 0x3E, 0xC1, 0xE4, 0xFF, 0xBE, 0xE5, 0xF6, 0xE0, 0xBE, 0x83, 0x3A, 0xFC, 0x3C, 0xA4, 0xDC, 0x49, 0x3D, 0xF4, 0x37, 0xD7, 0x3E, 0xB0, 0xD8, 0x16, 0xBE, 0x1E, 0x34, 0x31, 0x3D, 0x2F, 0x3B, 0xE6, 0xBC, 0x26, 0x80, 0x22, 0xBF, 0xA2, 0xAF, 0x99, 0x3E, 0xB8, 0xE5, 0xCD, 0x3E, 0x9F, 0xDD, 0x18, 0xBE, 0x0F, 0x06, 0x5D, 0x3E, 0x68, 0xF1, 0xA2, 0x3C, 0x7A, 0xC2, 0xC6, 0xBE, 0x8B, 0x38, 0x25, 0x3E, 0x55, 0xD6, 0x61, 0x3E, 0xC9, 0x48, 0x1A, 0x3E, 0x84, 0x38, 0xBE, 0xBE, 0x06, 0x38, 0x01, 0x3E, 0xFC, 0xB3, 0xF5, 0x3E, 0xA3, 0x0A, 0x86, 0x3E, 0x16, 0x95, 0xBD, 0x3E, 0x97, 0x13, 0x68, 0x3E, 0x8B, 0x32, 0xD5, 0xBE, 0x9F, 0x1D, 0xDD, 0xBD, 0xC5, 0x89, 0xBD, 0x3C, 0xC7, 0xC3, 0xFF, 0x3E, 0x90, 0x5E, 0x02, 0xBE, 0x41, 0x1D, 0xDB, 0x3C, 0xBD, 0xD3, 0x2D, 0x3E, 0x7B, 0x72, 0x66, 0x3D, 0x9B, 0x24, 0xAF, 0xBE, 0x4B, 0xB9, 0x12, 0x3E, 0xBB, 0xFA, 0x25, 0xBF, 0x66, 0x49, 0x3F, 0x3E, 0x83, 0x4C, 0x8B, 0x3E, 0xE3, 0x5E, 0xD6, 0xBD, 0x9B, 0x8C, 0x33, 0xBC, 0xFA, 0x59, 0x47, 0x3E, 0x4B, 0x17, 0xB5, 0xBC, 0x0D, 0xF9, 0xAC, 0x3D, 0x36, 0xF4, 0x5B, 0x3E, 0xC1, 0xAD, 0x04, 0xBF, 0x13, 0xA5, 0x09, 0xBE, 0x7D, 0x18, 0xEE, 0x3E, 0x31, 0x3B, 0xE1, 0xBD, 0xD3, 0xDD, 0xA9, 0x3E, 0x22, 0x7A, 0x81, 0xBE, 0xB7, 0x45, 0x87, 0xBD, 0x82, 0xC2, 0xFA, 0xBC, 0x7A, 0x84, 0x87, 0x3E, 0xB0, 0xB6, 0x3E, 0x3E, 0xF7, 0xAA, 0xE6, 0xBD, 0xAC, 0x1D, 0x4D, 0xBE, 0x52, 0xA4, 0xBE, 0x3E, 0xC3, 0x02, 0xD0, 0xBE, 0xA5, 0xCD, 0xA3, 0xBE, 0x3A, 0x47, 0xD1, 0xBE, 0xDE, 0x2B, 0x18, 0xBD, 0x00, 0xA9, 0x9A, 0xBE, 0xF7, 0x07, 0x6B, 0xBE, 0x3E, 0x2B, 0x18, 0x3E, 0x7D, 0xE7, 0x95, 0xBE, 0x05, 0xC5, 0x64, 0x3D, 0x70, 0x51, 0xF7, 0x3D, 0xF1, 0x85, 0x44, 0xBE, 0xFF, 0x67, 0xB9, 0xBE, 0x98, 0x5B, 0x27, 0xBD, 0x6A, 0x1A, 0xB6, 0x3E, 0x84, 0x5B, 0x1F, 0xBE, 0x4B, 0x84, 0x79, 0x3D, 0xBE, 0xC1, 0x5D, 0xBE, 0xB6, 0x54, 0xAE, 0xBD, 0x18, 0x13, 0x10, 0xBC, 0xDF, 0x89, 0x0F, 0x3E, 0xF3, 0xCE, 0xA9, 0xBE, 0x39, 0xFB, 0xD4, 0x3E, 0x4E, 0xB8, 0xEF, 0xB8, 0x6E, 0x2B, 0x8E, 0x3D, 0xA6, 0x91, 0xA7, 0xBE, 0x87, 0x2C, 0xDD, 0x3E, 0x6F, 0x75, 0x5D, 0xBE, 0x6C, 0x2C, 0xA5, 0x3E, 0x18, 0x9E, 0x98, 0xBE, 0x97, 0x5D, 0xA1, 0x3E, 0x8F, 0x51, 0x61, 0x3D, 0x53, 0xDF, 0x0D, 0xBF, 0xD3, 0x91, 0x37, 0xBD, 0xF0, 0x01, 0x97, 0xBE, 0x31, 0x07, 0x64, 0xBE, 0xDF, 0xBE, 0x63, 0xBD, 0x08, 0x55, 0x8D, 0xBC, 0x63, 0x78, 0x61, 0x3E, 0xA7, 0x63, 0xE7, 0xBD, 0x17, 0x92, 0xB0, 0xBE, 0x44, 0x78, 0xA1, 0x3E, 0xE5, 0x39, 0x67, 0xBD, 0x8F, 0xF7, 0x61, 0x3E, 0x8C, 0x59, 0xDB, 0xBE, 0x66, 0x26, 0x29, 0xBD, 0x65, 0x84, 0xAB, 0xBD, 0x73, 0x7F, 0x56, 0x3E, 0xE3, 0xF1, 0x84, 0x3E, 0xD6, 0x7C, 0xCA, 0xBE, 0x84, 0xE4, 0xC9, 0x3D, 0xE8, 0x89, 0xD1, 0xBD, 0xF3, 0x57, 0x4B, 0xBE, 0x1E, 0x86, 0x9E, 0xBC, 0x5F, 0xE1, 0x78, 0x3E, 0x32, 0x53, 0xF6, 0xBD, 0x95, 0xCB, 0x9C, 0x3E, 0x97, 0x65, 0x1B, 0x3E, 0xF0, 0x5E, 0xD5, 0x3E, 0x57, 0xF4, 0x0B, 0xBC, 0xA2, 0xA6, 0x7F, 0xBE, 0x36, 0xD8, 0xE8, 0x3E, 0x5A, 0xFF, 0xDA, 0x3E, 0xD0, 0x43, 0x09, 0xBF, 0x24, 0x9E, 0x8D, 0xBE, 0xD5, 0x80, 0x41, 0x3E, 0x9F, 0xFE, 0x95, 0xBD, 0xCC, 0x2B, 0x50, 0x3C, 0x5A, 0xB1, 0x3E, 0x3E, 0x47, 0xB6, 0x05, 0x3E, 0xD4, 0x05, 0x89, 0xBD, 0x02, 0x27, 0xA5, 0xBE, 0x4A, 0x36, 0xA9, 0xBD, 0x4A, 0xD5, 0x1A, 0xBF, 0xF0, 0x83, 0x2F, 0xBF, 0xEB, 0x38, 0x72, 0x3E, 0x7A, 0x91, 0x13, 0xBE, 0xDB, 0xED, 0x23, 0x3E, 0xCC, 0xD5, 0xBF, 0x3D, 0x80, 0xA6, 0x11, 0x3D, 0x3E, 0x0C, 0x9D, 0xBD, 0xBD, 0x5A, 0x3F, 0x3E, 0x03, 0xF3, 0x1E, 0x3E, 0x08, 0x51, 0xAA, 0x3E, 0xE0, 0xEE, 0x9A, 0xBE, 0xD2, 0x4F, 0x68, 0x3D, 0x81, 0x8E, 0x14, 0x3E, 0x4E, 0xDE, 0x03, 0x3F, 0x6B, 0x9F, 0x05, 0x3E, 0xB2, 0xA1, 0xC7, 0x3E, 0x13, 0x88, 0x15, 0xBE, 0x0C, 0x26, 0xD6, 0xBE, 0xAA, 0xE8, 0x5A, 0xBE, 0x7F, 0x59, 0x86, 0x3E, 0x3B, 0x7D, 0x14, 0xBF, 0x7E, 0x61, 0x17, 0x3D, 0xA8, 0x72, 0x9D, 0xBD, 0xA8, 0x0C, 0x26, 0x3C, 0x5C, 0x51, 0xC4, 0xBE, 0xE5, 0xE5, 0x1C, 0xBF, 0x2F, 0xAF, 0x1A, 0x3E, 0x09, 0x1B, 0x14, 0x3E, 0xE9, 0x78, 0x32, 0x3E, 0xB2, 0x91, 0x8A, 0xBE, 0x6C, 0xCB, 0x93, 0x3E, 0xDB, 0x5E, 0xF0, 0xBD, 0x33, 0xA7, 0x27, 0xBE, 0x65, 0x50, 0x8A, 0xBE, 0x81, 0xAF, 0x74, 0xBD, 0x98, 0x75, 0xAE, 0xBE, 0x29, 0x08, 0x96, 0x3E, 0xC4, 0x52, 0x8D, 0xBE, 0x80, 0x05, 0xA5, 0xBD, 0x16, 0x63, 0xA1, 0x3D, 0x65, 0x30, 0x36, 0x3E, 0x63, 0xA0, 0x3B, 0x3E, 0x0C, 0xAF, 0xC3, 0xBE, 0xA1, 0xCF, 0x61, 0xBE, 0x21, 0xA4, 0x95, 0x3E, 0xFB, 0xEC, 0x8A, 0xBE, 0xF7, 0x7D, 0xB2, 0xBE, 0xFB, 0x44, 0x26, 0xBD, 0x98, 0x69, 0x1D, 0x3E, 0xFA, 0x89, 0xBA, 0x3C, 0x10, 0x97, 0x5D, 0x3C, 0x39, 0x71, 0x81, 0xBE, 0xE1, 0x50, 0xAD, 0x3E, 0xA7, 0x65, 0x03, 0x3F, 0x81, 0x1B, 0xE4, 0xBE, 0xDD, 0x9B, 0x7B, 0xBE, 0x5D, 0xA5, 0x5E, 0x3C, 0x82, 0x8E, 0xAA, 0xBE, 0x07, 0x71, 0xEC, 0x3C, 0x1B, 0x45, 0xFD, 0xBE, 0x8D, 0x07, 0xF5, 0xBB, 0x28, 0x10, 0x09, 0x3F, 0x21, 0x86, 0x2F, 0xBE, 0x9C, 0xCB, 0x8C, 0x3E, 0xE1, 0x3E, 0xAD, 0xBE, 0x0A, 0xB9, 0xE4, 0xBD, 0xF4, 0x78, 0x96, 0xBE, 0xFA, 0x84, 0x9D, 0x3E, 0xAC, 0xDA, 0x8D, 0xBE, 0xE6, 0x1A, 0x50, 0x3D, 0x7F, 0xD4, 0x8F, 0xBE, 0x60, 0x4A, 0x33, 0x3E, 0xEE, 0x03, 0xE1, 0x3E, 0xE3, 0x76, 0x72, 0x3C, 0xCB, 0x72, 0x66, 0x3E, 0x87, 0x61, 0xC3, 0x3E, 0x41, 0x04, 0x36, 0xBE, 0xD4, 0x0D, 0x98, 0xBD, 0xA9, 0x82, 0x13, 0xBE, 0xAA, 0x79, 0xA9, 0x3E, 0x67, 0x24, 0x92, 0x3E, 0x31, 0xD6, 0xE5, 0x3D, 0x0E, 0x45, 0x73, 0xBC, 0xDE, 0x5B, 0x8F, 0xBD, 0xA1, 0xBE, 0x12, 0x3F, 0xEB, 0xED, 0xA4, 0x3D, 0x2F, 0x48, 0x08, 0xBF, 0x6C, 0x02, 0xFC, 0x3D, 0x7A, 0xEB, 0x2F, 0xBE, 0xD0, 0x60, 0xB2, 0x3E, 0xE8, 0xDE, 0x14, 0xBD, 0x77, 0x51, 0xC3, 0x3E, 0xED, 0xE9, 0x24, 0x3E, 0x2C, 0x35, 0x1B, 0xBE, 0x09, 0x4F, 0xF7, 0x3B, 0xFB, 0x7A, 0x98, 0x3E, 0x58, 0xF1, 0xAD, 0x3E, 0xDD, 0x17, 0xB1, 0x3D, 0xFC, 0xFF, 0x35, 0xBE, 0xEE, 0x37, 0x06, 0x3E, 0x31, 0xA7, 0x8C, 0x3D, 0x1D, 0x1A, 0x79, 0xBE, 0xB5, 0x6C, 0x07, 0xBF, 0x61, 0xD6, 0xC4, 0xBE, 0x72, 0x37, 0x2E, 0x3E, 0xBA, 0xD4, 0x5D, 0xBE, 0x19, 0xE5, 0x64, 0xBE, 0x56, 0xC1, 0x08, 0x3B, 0xFA, 0x5C, 0x40, 0xBD, 0x3A, 0x1C, 0xC4, 0x3D, 0x0B, 0xA3, 0x34, 0xBD, 0x0F, 0x11, 0x00, 0xBF, 0xB5, 0x68, 0xB1, 0x3E, 0xE1, 0xB9, 0x83, 0xBD, 0xD2, 0x36, 0x7F, 0xBE, 0xC0, 0xC1, 0xB4, 0x3E, 0xF1, 0xDF, 0x9B, 0x3D, 0x4F, 0xCC, 0xEF, 0xBD, 0x04, 0xCD, 0x91, 0xBE, 0xC6, 0x54, 0xBA, 0x3D, 0x97, 0x78, 0x83, 0xBD, 0x77, 0x17, 0xEF, 0x3D, 0x56, 0xDA, 0x02, 0x3F, 0x10, 0x02, 0x5D, 0x3E, 0xC3, 0xFD, 0x6B, 0xBE, 0xB9, 0x7C, 0x79, 0xBC, 0x75, 0xDA, 0x4F, 0x3D, 0xFD, 0x1F, 0x98, 0xBE, 0x24, 0xA7, 0x17, 0x3D, 0xE7, 0xC8, 0xB0, 0xBE, 0x49, 0xFD, 0xBD, 0xBE, 0x56, 0x68, 0x77, 0x3E, 0xF8, 0xA5, 0x84, 0x3E, 0x75, 0xD2, 0x09, 0x3F, 0x21, 0xE0, 0xCC, 0x3D, 0xA9, 0x74, 0x6B, 0x3E, 0x9B, 0xD4, 0x40, 0xBE, 0x0A, 0x7A, 0x62, 0xBE, 0xE6, 0x6A, 0xCB, 0xBE, 0x7D, 0x7F, 0xF5, 0x3E, 0x13, 0x25, 0xA6, 0x3D, 0x8B, 0x49, 0xAC, 0xBC, 0x87, 0xBB, 0x8B, 0x3E, 0x8B, 0xD8, 0x27, 0x3D, 0x26, 0xFB, 0xFF, 0xFF, 0x04, 0x00, 0x00, 0x00, 0x00, 0x01, 0x00, 0x00, 0xCD, 0x2C, 0x43, 0xBC, 0xCD, 0x59, 0xAE, 0xBD, 0xA4, 0xD5, 0xD3, 0xBB, 0x44, 0x69, 0x03, 0x3E, 0x9D, 0xAE, 0xB6, 0x3D, 0x87, 0xA1, 0x72, 0x3C, 0xF5, 0x4A, 0xC4, 0x3E, 0x7C, 0xAA, 0x6E, 0xBC, 0xC4, 0x02, 0x95, 0x3E, 0x57, 0xA8, 0xC1, 0x3E, 0xB9, 0x2E, 0xE9, 0xBC, 0x3C, 0x53, 0x00, 0x3B, 0x14, 0xD7, 0xC7, 0x3D, 0x2C, 0xD8, 0x39, 0x3E, 0xD9, 0x8C, 0xD8, 0x3D, 0x83, 0xB9, 0xA5, 0x3D, 0x2E, 0xB6, 0xD0, 0x3E, 0x8F, 0x0B, 0x0A, 0x3E, 0xBE, 0xF5, 0xA0, 0xBD, 0x23, 0x7E, 0xCF, 0x3C, 0x38, 0x3B, 0x38, 0x3B, 0x84, 0x41, 0xC0, 0xBD, 0x8D, 0x84, 0xDE, 0x3E, 0x44, 0x47, 0x49, 0xBE, 0x5C, 0xC5, 0x06, 0xBE, 0x67, 0x68, 0x0B, 0xBC, 0x6B, 0xFB, 0x0B, 0x3E, 0x9F, 0x04, 0xD9, 0xBC, 0x5F, 0xB4, 0x12, 0x3D, 0x02, 0x34, 0x01, 0x3E, 0xD9, 0xB5, 0x7F, 0x3E, 0xDE, 0x38, 0x3B, 0x3E, 0xD0, 0x2E, 0xE4, 0xBD, 0xBE, 0xC0, 0x7A, 0x3E, 0x92, 0x59, 0xA6, 0x3C, 0x0E, 0xE6, 0x7A, 0x3D, 0x4E, 0x5B, 0x8A, 0xBD, 0xC4, 0x3A, 0xC4, 0xBD, 0xAD, 0xF1, 0x98, 0xBD, 0xF7, 0x13, 0x16, 0x3E, 0x7D, 0xB9, 0x7C, 0x3E, 0x93, 0xE0, 0xC1, 0xBB, 0x1D, 0xAA, 0x92, 0x3C, 0x98, 0xB7, 0x81, 0xBE, 0x4C, 0xD9, 0x91, 0xBD, 0xD4, 0x64, 0x66, 0x3E, 0xEE, 0x49, 0xB5, 0x3D, 0xBA, 0x0A, 0x55, 0x3E, 0xDC, 0xB9, 0x13, 0xBD, 0x16, 0x9B, 0xE1, 0x3D, 0xA0, 0x38, 0x26, 0x3E, 0x56, 0x4A, 0x31, 0x3E, 0xA1, 0xB6, 0x99, 0x3E, 0x1F, 0x7E, 0x34, 0xBC, 0xA5, 0x52, 0x9C, 0xBD, 0xDE, 0x63, 0x82, 0x3C, 0xFB, 0xAE, 0x36, 0xBD, 0x0E, 0x79, 0xA2, 0xBC, 0x18, 0xE2, 0xFB, 0xBD, 0x0B, 0x3F, 0x13, 0x3E, 0xCB, 0x88, 0xA5, 0xBD, 0x62, 0x3F, 0xB2, 0xBD, 0xC7, 0x3D, 0x15, 0xBC, 0x85, 0x39, 0x42, 0x3E, 0x32, 0xFC, 0xFF, 0xFF, 0x04, 0x00, 0x00, 0x00, 0x14, 0x00, 0x00, 0x00, 0xBE, 0xE7, 0x6D, 0xBD, 0xF4, 0xD8, 0x1E, 0x3D, 0xA4, 0xCB, 0x8B, 0x3D, 0xA2, 0xA6, 0x82, 0xBE, 0xF8, 0xE8, 0x68, 0x3E, 0x52, 0xFC, 0xFF, 0xFF, 0x04, 0x00, 0x00, 0x00, 0x80, 0x00, 0x00, 0x00, 0x92, 0x6C, 0x61, 0x3E, 0x34, 0xEA, 0xE4, 0x3D, 0x79, 0x23, 0x7C, 0xBE, 0x9C, 0x4B, 0xBD, 0xBD, 0xB7, 0xF8, 0x4A, 0x3E, 0xFF, 0x81, 0xDC, 0x3D, 0xAE, 0x5D, 0xF5, 0x3E, 0x68, 0xCF, 0x22, 0xBC, 0x86, 0xFF, 0x7A, 0x3E, 0xAB, 0x7C, 0x1F, 0x3E, 0xB7, 0x90, 0x8B, 0x3D, 0xDD, 0x10, 0x0F, 0x3E, 0xB1, 0xE2, 0x1A, 0xBD, 0x8C, 0xA1, 0x1A, 0x3E, 0x8F, 0x5D, 0x30, 0x3E, 0x0A, 0x21, 0xB0, 0xBB, 0x40, 0x8A, 0x9E, 0x3D, 0xE9, 0xEF, 0x79, 0x3E, 0xDC, 0x74, 0x87, 0x3C, 0x76, 0x08, 0x47, 0x3E, 0x14, 0x8D, 0xC9, 0x3D, 0x11, 0x37, 0x5A, 0x3E, 0x29, 0x0E, 0x47, 0x3E, 0xF4, 0x92, 0x03, 0xBD, 0xAF, 0x38, 0x0B, 0xBE, 0x3C, 0xC1, 0xD4, 0x3C, 0xA2, 0x69, 0xAD, 0xBC, 0xC9, 0x73, 0x62, 0x3E, 0x1E, 0x1E, 0x8C, 0xBE, 0xBC, 0xD0, 0x33, 0xBD, 0x30, 0xB2, 0x37, 0x3E, 0x91, 0x8A, 0x63, 0xBE, 0xDE, 0xFC, 0xFF, 0xFF, 0x04, 0x00, 0x00, 0x00, 0x80, 0x02, 0x00, 0x00, 0x06, 0x24, 0x17, 0xBF, 0x79, 0xBD, 0xC3, 0x3E, 0x26, 0xE7, 0xC7, 0xBD, 0x10, 0x50, 0x13, 0xBF, 0x3A, 0x48, 0xEB, 0x3E, 0x79, 0xD7, 0xB8, 0xBE, 0xE5, 0xF5, 0xD5, 0x3E, 0x02, 0xFC, 0x0D, 0xBF, 0x9D, 0xC5, 0xDA, 0xBE, 0x58, 0x47, 0xA7, 0x3E, 0xFB, 0xFC, 0x57, 0x3E, 0x5D, 0x61, 0x05, 0xBF, 0x86, 0xA3, 0xAA, 0xBD, 0x70, 0x1C, 0xE9, 0x3E, 0x4B, 0x94, 0x79, 0x3E, 0xBE, 0x12, 0x26, 0x3D, 0x33, 0x34, 0x8C, 0x3E, 0x6A, 0x0C, 0x5E, 0x3E, 0x31, 0xC7, 0xE0, 0xBE, 0x95, 0x70, 0xA9, 0x3E, 0x76, 0x69, 0xC4, 0x3E, 0xB9, 0xCD, 0xDA, 0x3D, 0xBD, 0x60, 0x2F, 0x3E, 0xE2, 0xDD, 0x04, 0x3F, 0x7D, 0xBE, 0x56, 0xBF, 0xE2, 0x3B, 0xE8, 0x3D, 0x6A, 0x76, 0x4E, 0xBD, 0x0B, 0x73, 0x26, 0xBF, 0x31, 0x81, 0x3A, 0xBD, 0x0C, 0x52, 0x24, 0xBF, 0x06, 0x1A, 0x3F, 0xBF, 0x93, 0x07, 0xA9, 0x3E, 0xF8, 0xC6, 0x4F, 0xBE, 0x10, 0xF3, 0xF8, 0x3E, 0x5F, 0xA1, 0xA2, 0xBE, 0xCE, 0xB4, 0xD4, 0xBE, 0xDE, 0xC3, 0xB6, 0xBE, 0x79, 0x1F, 0xF5, 0xBE, 0xCF, 0xEE, 0xE1, 0xBE, 0xD5, 0x24, 0x27, 0x3F, 0x95, 0x7F, 0x17, 0x3F, 0xEB, 0x9B, 0x36, 0xBF, 0x1E, 0x14, 0xB2, 0xBD, 0x07, 0xF3, 0x33, 0xBF, 0x67, 0xFA, 0x9F, 0x3E, 0xDA, 0x99, 0x1D, 0xBF, 0xD4, 0x5B, 0xA8, 0xBE, 0x5E, 0x65, 0x19, 0x3E, 0xCB, 0xC5, 0x11, 0xBF, 0x7C, 0xC9, 0x28, 0xBF, 0x36, 0x20, 0xD3, 0x3E, 0xAF, 0x7A, 0x4F, 0xBF, 0xEB, 0xB8, 0xA4, 0xBE, 0x74, 0x07, 0x43, 0xBE, 0x06, 0x85, 0x34, 0x3F, 0xA0, 0x87, 0xD0, 0x3E, 0x7D, 0x68, 0xE8, 0xBD, 0x31, 0xBA, 0x0D, 0x3F, 0x05, 0x12, 0x9B, 0xBE, 0x2D, 0x05, 0x5C, 0xBE, 0xF7, 0x76, 0x7E, 0x3E, 0x0C, 0x17, 0x02, 0xBE, 0x6A, 0x84, 0x6C, 0x3E, 0x57, 0x45, 0x9A, 0x3D, 0x58, 0x79, 0xB6, 0xBE, 0xF2, 0x0B, 0x55, 0xBD, 0x82, 0x7F, 0x9F, 0x3E, 0xDB, 0x69, 0x87, 0xBE, 0x0B, 0xCE, 0x03, 0x3F, 0x64, 0xFE, 0x05, 0x3F, 0x47, 0xFD, 0xE1, 0xBE, 0xEC, 0xF0, 0x29, 0x3E, 0x92, 0x62, 0x6F, 0xBE, 0x88, 0x1B, 0x38, 0xBE, 0xB0, 0x87, 0xEE, 0x3E, 0xEE, 0x1E, 0xD8, 0x3E, 0x2B, 0x48, 0xBC, 0xBE, 0x40, 0x52, 0xD2, 0x3E, 0x40, 0x4F, 0xA3, 0x3E, 0x8E, 0xCA, 0x25, 0xBF, 0x9B, 0xA4, 0x1E, 0xBF, 0x73, 0x7D, 0x6E, 0x3E, 0xFC, 0x85, 0x03, 0xBF, 0x34, 0x14, 0xD6, 0x3D, 0xFC, 0x7D, 0xFA, 0xBE, 0x52, 0xE5, 0xC2, 0x3E, 0x52, 0x82, 0xCA, 0x3E, 0x1F, 0xFA, 0xE2, 0xBE, 0xB2, 0x0E, 0x89, 0xBE, 0x99, 0xF9, 0xE7, 0x3E, 0x3E, 0xB6, 0x58, 0xBF, 0x2C, 0xBE, 0x19, 0xBF, 0x8F, 0x30, 0x63, 0xBE, 0x13, 0x8B, 0x8E, 0xBD, 0x13, 0xBD, 0xB2, 0x3E, 0x35, 0x9D, 0xB6, 0x3E, 0x61, 0xEB, 0x39, 0x3D, 0xF3, 0xCB, 0x9E, 0xBD, 0xE2, 0x4A, 0xB8, 0x3E, 0x9B, 0x3F, 0xA0, 0x3E, 0x7F, 0x4D, 0x2E, 0xBF, 0x78, 0x36, 0xA2, 0x3E, 0xD2, 0x94, 0x8C, 0xBF, 0x44, 0x9A, 0xDE, 0xBE, 0xBE, 0x0E, 0x92, 0xBE, 0x7E, 0x25, 0x5F, 0xBE, 0xC7, 0x2D, 0x2F, 0xBF, 0x4D, 0xBA, 0x86, 0xBE, 0x92, 0xCE, 0xAB, 0x3E, 0x2D, 0x5D, 0x65, 0x3E, 0x00, 0x48, 0xA1, 0xBE, 0xED, 0xCA, 0x66, 0xBE, 0x64, 0x55, 0x99, 0x3D, 0x19, 0xA6, 0xE1, 0x3D, 0x56, 0x5A, 0xC2, 0x3E, 0xB3, 0xEC, 0x5E, 0xBD, 0x16, 0x41, 0x86, 0xBE, 0xF1, 0x6B, 0x20, 0xBF, 0x2A, 0x49, 0x3C, 0xBF, 0xB2, 0xF7, 0x30, 0xBE, 0x1E, 0x6B, 0xC7, 0x3E, 0x0F, 0x56, 0xFD, 0xBE, 0xF3, 0x33, 0xAC, 0xBC, 0x05, 0x4D, 0x4D, 0xBE, 0xD6, 0xC8, 0xD7, 0x3E, 0x7E, 0xE0, 0xCC, 0x3E, 0xD7, 0x74, 0x17, 0xBE, 0xD1, 0xD7, 0xEC, 0x3E, 0xF0, 0x66, 0x3D, 0x3F, 0xD2, 0x9C, 0x18, 0xBF, 0xD7, 0xB0, 0x5D, 0xBF, 0xB5, 0xBE, 0xC0, 0x3C, 0x26, 0x09, 0x22, 0xBE, 0xFD, 0xF5, 0x07, 0xBF, 0xB4, 0x54, 0x87, 0x3F, 0x8D, 0x36, 0x94, 0xBE, 0x55, 0x88, 0x81, 0x3E, 0xD4, 0x2D, 0xB1, 0xBD, 0x08, 0xA8, 0x43, 0x3E, 0x37, 0x86, 0x79, 0xBE, 0xB6, 0xF9, 0x25, 0x3E, 0x7E, 0xE4, 0x1D, 0xBF, 0x60, 0xCB, 0xDD, 0xBE, 0x23, 0x1C, 0x39, 0xBF, 0xE4, 0xD7, 0xCB, 0xBC, 0x06, 0x72, 0x3C, 0x3F, 0xF8, 0xB6, 0x0A, 0x3E, 0x92, 0x04, 0x4D, 0xBF, 0x06, 0xB0, 0x38, 0xBF, 0xD5, 0x56, 0x6B, 0x3E, 0xE9, 0x77, 0x38, 0xBF, 0x92, 0x59, 0x5E, 0xBF, 0xB7, 0x57, 0x63, 0x3E, 0xAA, 0x7A, 0x38, 0xBF, 0x3C, 0x68, 0xC5, 0xBE, 0xDA, 0x79, 0xFF, 0x3E, 0x37, 0x79, 0x74, 0xBF, 0xD2, 0x24, 0xA5, 0x3E, 0x96, 0xEE, 0x92, 0xBD, 0x09, 0xBC, 0x7E, 0xBF, 0x0C, 0xFA, 0xFF, 0xFF, 0x10, 0xFA, 0xFF, 0xFF, 0x0F, 0x00, 0x00, 0x00, 0x4D, 0x4C, 0x49, 0x52, 0x20, 0x43, 0x6F, 0x6E, 0x76, 0x65, 0x72, 0x74, 0x65, 0x64, 0x2E, 0x00, 0x01, 0x00, 0x00, 0x00, 0x14, 0x00, 0x00, 0x00, 0x00, 0x00, 0x0E, 0x00, 0x18, 0x00, 0x14, 0x00, 0x10, 0x00, 0x0C, 0x00, 0x08, 0x00, 0x04, 0x00, 0x0E, 0x00, 0x00, 0x00, 0x14, 0x00, 0x00, 0x00, 0x1C, 0x00, 0x00, 0x00, 0x30, 0x01, 0x00, 0x00, 0x34, 0x01, 0x00, 0x00, 0x38, 0x01, 0x00, 0x00, 0x04, 0x00, 0x00, 0x00, 0x6D, 0x61, 0x69, 0x6E, 0x00, 0x00, 0x00, 0x00, 0x04, 0x00, 0x00, 0x00, 0xD8, 0x00, 0x00, 0x00, 0x84, 0x00, 0x00, 0x00, 0x50, 0x00, 0x00, 0x00, 0x14, 0x00, 0x00, 0x00, 0x00, 0x00, 0x0E, 0x00, 0x1A, 0x00, 0x14, 0x00, 0x10, 0x00, 0x0C, 0x00, 0x0B, 0x00, 0x04, 0x00, 0x0E, 0x00, 0x00, 0x00, 0x1C, 0x00, 0x00, 0x00, 0x00, 0x00, 0x00, 0x09, 0x1C, 0x00, 0x00, 0x00, 0x20, 0x00, 0x00, 0x00, 0x01, 0x00, 0x00, 0x00, 0x00, 0x00, 0x06, 0x00, 0x08, 0x00, 0x04, 0x00, 0x06, 0x00, 0x00, 0x00, 0x00, 0x00, 0x80, 0x3F, 0x01, 0x00, 0x00, 0x00, 0x0A, 0x00, 0x00, 0x00, 0x01, 0x00, 0x00, 0x00, 0x09, 0x00, 0x00, 0x00, 0x8E, 0xFF, 0xFF, 0xFF, 0x10, 0x00, 0x00, 0x00, 0x00, 0x00, 0x00, 0x08, 0x0C, 0x00, 0x00, 0x00, 0x10, 0x00, 0x00, 0x00, 0xD4, 0xFA, 0xFF, 0xFF, 0x01, 0x00, 0x00, 0x00, 0x09, 0x00, 0x00, 0x00, 0x03, 0x00, 0x00, 0x00, 0x08, 0x00, 0x00, 0x00, 0x01, 0x00, 0x00, 0x00, 0x03, 0x00, 0x00, 0x00, 0xBE, 0xFF, 0xFF, 0xFF, 0x1C, 0x00, 0x00, 0x00, 0x00, 0x00, 0x00, 0x08, 0x1C, 0x00, 0x00, 0x00, 0x20, 0x00, 0x00, 0x00, 0x0C, 0x00, 0x08, 0x00, 0x07, 0x00, 0x00, 0x00, 0x00, 0x00, 0x06, 0x00, 0x0C, 0x00, 0x00, 0x00, 0x00, 0x00, 0x01, 0x01, 0x01, 0x00, 0x00, 0x00, 0x08, 0x00, 0x00, 0x00, 0x03, 0x00, 0x00, 0x00, 0x07, 0x00, 0x00, 0x00, 0x06, 0x00, 0x00, 0x00, 0x02, 0x00, 0x00, 0x00, 0x00, 0x00, 0x0E, 0x00, 0x16, 0x00, 0x00, 0x00, 0x10, 0x00, 0x0C, 0x00, 0x0B, 0x00, 0x04, 0x00, 0x0E, 0x00, 0x00, 0x00, 0x18, 0x00, 0x00, 0x00, 0x00, 0x00, 0x00, 0x08, 0x18, 0x00, 0x00, 0x00, 0x1C, 0x00, 0x00, 0x00, 0x00, 0x00, 0x06, 0x00, 0x08, 0x00, 0x07, 0x00, 0x06, 0x00, 0x00, 0x00, 0x00, 0x00, 0x00, 0x01, 0x01, 0x00, 0x00, 0x00, 0x07, 0x00, 0x00, 0x00, 0x03, 0x00, 0x00, 0x00, 0x00, 0x00, 0x00, 0x00, 0x05, 0x00, 0x00, 0x00, 0x04, 0x00, 0x00, 0x00, 0x01, 0x00, 0x00, 0x00, 0x0A, 0x00, 0x00, 0x00, 0x01, 0x00, 0x00, 0x00, 0x00, 0x00, 0x00, 0x00, 0x0B, 0x00, 0x00, 0x00, 0x48, 0x04, 0x00, 0x00, 0xE4, 0x03, 0x00, 0x00, 0x74, 0x03, 0x00, 0x00, 0x1C, 0x03, 0x00, 0x00, 0xC8, 0x02, 0x00, 0x00, 0x80, 0x02, 0x00, 0x00, 0x08, 0x02, 0x00, 0x00, 0x68, 0x01, 0x00, 0x00, 0xD8, 0x00, 0x00, 0x00, 0x60, 0x00, 0x00, 0x00, 0x04, 0x00, 0x00, 0x00, 0xFA, 0xFB, 0xFF, 0xFF, 0x00, 0x00, 0x00, 0x01, 0x14, 0x00, 0x00, 0x00, 0x1C, 0x00, 0x00, 0x00, 0x1C, 0x00, 0x00, 0x00, 0x0B, 0x00, 0x00, 0x00, 0x34, 0x00, 0x00, 0x00, 0x02, 0x00, 0x00, 0x00, 0xFF, 0xFF, 0xFF, 0xFF, 0x05, 0x00, 0x00, 0x00, 0xE4, 0xFB, 0xFF, 0xFF, 0x19, 0x00, 0x00, 0x00, 0x53, 0x74, 0x61, 0x74, 0x65, 0x66, 0x75, 0x6C, 0x50, 0x61, 0x72, 0x74, 0x69, 0x74, 0x69, 0x6F, 0x6E, 0x65, 0x64, 0x43, 0x61, 0x6C, 0x6C, 0x3A, 0x30, 0x00, 0x00, 0x00, 0x02, 0x00, 0x00, 0x00, 0x01, 0x00, 0x00, 0x00, 0x05, 0x00, 0x00, 0x00, 0x52, 0xFC, 0xFF, 0xFF, 0x00, 0x00, 0x00, 0x01, 0x14, 0x00, 0x00, 0x00, 0x1C, 0x00, 0x00, 0x00, 0x1C, 0x00, 0x00, 0x00, 0x0A, 0x00, 0x00, 0x00, 0x50, 0x00, 0x00, 0x00, 0x02, 0x00, 0x00, 0x00, 0xFF, 0xFF, 0xFF, 0xFF, 0x05, 0x00, 0x00, 0x00, 0x3C, 0xFC, 0xFF, 0xFF, 0x34, 0x00, 0x00, 0x00, 0x73, 0x65, 0x71, 0x75, 0x65, 0x6E, 0x74, 0x69, 0x61, 0x6C, 0x2F, 0x64, 0x65, 0x6E, 0x73, 0x65, 0x5F, 0x32, 0x2F, 0x4D, 0x61, 0x74, 0x4D, 0x75, 0x6C, 0x3B, 0x73, 0x65, 0x71, 0x75, 0x65, 0x6E, 0x74, 0x69, 0x61, 0x6C, 0x2F, 0x64, 0x65, 0x6E, 0x73, 0x65, 0x5F, 0x32, 0x2F, 0x42, 0x69, 0x61, 0x73, 0x41, 0x64, 0x64, 0x00, 0x00, 0x00, 0x00, 0x02, 0x00, 0x00, 0x00, 0x01, 0x00, 0x00, 0x00, 0x05, 0x00, 0x00, 0x00, 0xC6, 0xFC, 0xFF, 0xFF, 0x00, 0x00, 0x00, 0x01, 0x14, 0x00, 0x00, 0x00, 0x1C, 0x00, 0x00, 0x00, 0x1C, 0x00, 0x00, 0x00, 0x09, 0x00, 0x00, 0x00, 0x68, 0x00, 0x00, 0x00, 0x02, 0x00, 0x00, 0x00, 0xFF, 0xFF, 0xFF, 0xFF, 0x20, 0x00, 0x00, 0x00, 0xB0, 0xFC, 0xFF, 0xFF, 0x4C, 0x00, 0x00, 0x00, 0x73, 0x65, 0x71, 0x75, 0x65, 0x6E, 0x74, 0x69, 0x61, 0x6C, 0x2F, 0x64, 0x65, 0x6E, 0x73, 0x65, 0x5F, 0x31, 0x2F, 0x4D, 0x61, 0x74, 0x4D, 0x75, 0x6C, 0x3B, 0x73, 0x65, 0x71, 0x75, 0x65, 0x6E, 0x74, 0x69, 0x61, 0x6C, 0x2F, 0x64, 0x65, 0x6E, 0x73, 0x65, 0x5F, 0x31, 0x2F, 0x52, 0x65, 0x6C, 0x75, 0x3B, 0x73, 0x65, 0x71, 0x75, 0x65, 0x6E, 0x74, 0x69, 0x61, 0x6C, 0x2F, 0x64, 0x65, 0x6E, 0x73, 0x65, 0x5F, 0x31, 0x2F, 0x42, 0x69, 0x61, 0x73, 0x41, 0x64, 0x64, 0x00, 0x00, 0x00, 0x00, 0x02, 0x00, 0x00, 0x00, 0x01, 0x00, 0x00, 0x00, 0x20, 0x00, 0x00, 0x00, 0x52, 0xFD, 0xFF, 0xFF, 0x00, 0x00, 0x00, 0x01, 0x14, 0x00, 0x00, 0x00, 0x1C, 0x00, 0x00, 0x00, 0x1C, 0x00, 0x00, 0x00, 0x08, 0x00, 0x00, 0x00, 0x60, 0x00, 0x00, 0x00, 0x02, 0x00, 0x00, 0x00, 0xFF, 0xFF, 0xFF, 0xFF, 0x40, 0x00, 0x00, 0x00, 0x3C, 0xFD, 0xFF, 0xFF, 0x46, 0x00, 0x00, 0x00, 0x73, 0x65, 0x71, 0x75, 0x65, 0x6E, 0x74, 0x69, 0x61, 0x6C, 0x2F, 0x64, 0x65, 0x6E, 0x73, 0x65, 0x2F, 0x4D, 0x61, 0x74, 0x4D, 0x75, 0x6C, 0x3B, 0x73, 0x65, 0x71, 0x75, 0x65, 0x6E, 0x74, 0x69, 0x61, 0x6C, 0x2F, 0x64, 0x65, 0x6E, 0x73, 0x65, 0x2F, 0x52, 0x65, 0x6C, 0x75, 0x3B, 0x73, 0x65, 0x71, 0x75, 0x65, 0x6E, 0x74, 0x69, 0x61, 0x6C, 0x2F, 0x64, 0x65, 0x6E, 0x73, 0x65, 0x2F, 0x42, 0x69, 0x61, 0x73, 0x41, 0x64, 0x64, 0x00, 0x00, 0x02, 0x00, 0x00, 0x00, 0x01, 0x00, 0x00, 0x00, 0x40, 0x00, 0x00, 0x00, 0x00, 0x00, 0x16, 0x00, 0x1C, 0x00, 0x18, 0x00, 0x17, 0x00, 0x10, 0x00, 0x0C, 0x00, 0x08, 0x00, 0x00, 0x00, 0x00, 0x00, 0x00, 0x00, 0x07, 0x00, 0x16, 0x00, 0x00, 0x00, 0x00, 0x00, 0x00, 0x01, 0x20, 0x00, 0x00, 0x00, 0x3C, 0x00, 0x00, 0x00, 0x07, 0x00, 0x00, 0x00, 0x00, 0x00, 0x00, 0x09, 0x50, 0x00, 0x00, 0x00, 0x0C, 0x00, 0x0C, 0x00, 0x00, 0x00, 0x00, 0x00, 0x08, 0x00, 0x04, 0x00, 0x0C, 0x00, 0x00, 0x00, 0x08, 0x00, 0x00, 0x00, 0x10, 0x00, 0x00, 0x00, 0x01, 0x00, 0x00, 0x00, 0x00, 0x00, 0x00, 0x00, 0x00, 0x00, 0x00, 0x00, 0x01, 0x00, 0x00, 0x00, 0xF6, 0xFE, 0xA7, 0x3B, 0x19, 0x00, 0x00, 0x00, 0x73, 0x65, 0x71, 0x75, 0x65, 0x6E, 0x74, 0x69, 0x61, 0x6C, 0x2F, 0x64, 0x65, 0x6E, 0x73, 0x65, 0x5F, 0x31, 0x2F, 0x4D, 0x61, 0x74, 0x4D, 0x75, 0x6C, 0x00, 0x00, 0x00, 0x02, 0x00, 0x00, 0x00, 0x20, 0x00, 0x00, 0x00, 0x40, 0x00, 0x00, 0x00, 0xC2, 0xFE, 0xFF, 0xFF, 0x00, 0x00, 0x00, 0x01, 0x10, 0x00, 0x00, 0x00, 0x10, 0x00, 0x00, 0x00, 0x06, 0x00, 0x00, 0x00, 0x24, 0x00, 0x00, 0x00, 0x3C, 0xFE, 0xFF, 0xFF, 0x17, 0x00, 0x00, 0x00, 0x73, 0x65, 0x71, 0x75, 0x65, 0x6E, 0x74, 0x69, 0x61, 0x6C, 0x2F, 0x64, 0x65, 0x6E, 0x73, 0x65, 0x2F, 0x4D, 0x61, 0x74, 0x4D, 0x75, 0x6C, 0x00, 0x02, 0x00, 0x00, 0x00, 0x40, 0x00, 0x00, 0x00, 0x06, 0x00, 0x00, 0x00, 0x06, 0xFF, 0xFF, 0xFF, 0x00, 0x00, 0x00, 0x01, 0x10, 0x00, 0x00, 0x00, 0x10, 0x00, 0x00, 0x00, 0x05, 0x00, 0x00, 0x00, 0x34, 0x00, 0x00, 0x00, 0x80, 0xFE, 0xFF, 0xFF, 0x27, 0x00, 0x00, 0x00, 0x73, 0x65, 0x71, 0x75, 0x65, 0x6E, 0x74, 0x69, 0x61, 0x6C, 0x2F, 0x64, 0x65, 0x6E, 0x73, 0x65, 0x2F, 0x42, 0x69, 0x61, 0x73, 0x41, 0x64, 0x64, 0x2F, 0x52, 0x65, 0x61, 0x64, 0x56, 0x61, 0x72, 0x69, 0x61, 0x62, 0x6C, 0x65, 0x4F, 0x70, 0x00, 0x01, 0x00, 0x00, 0x00, 0x40, 0x00, 0x00, 0x00, 0x56, 0xFF, 0xFF, 0xFF, 0x00, 0x00, 0x00, 0x01, 0x10, 0x00, 0x00, 0x00, 0x10, 0x00, 0x00, 0x00, 0x04, 0x00, 0x00, 0x00, 0x38, 0x00, 0x00, 0x00, 0xD0, 0xFE, 0xFF, 0xFF, 0x29, 0x00, 0x00, 0x00, 0x73, 0x65, 0x71, 0x75, 0x65, 0x6E, 0x74, 0x69, 0x61, 0x6C, 0x2F, 0x64, 0x65, 0x6E, 0x73, 0x65, 0x5F, 0x32, 0x2F, 0x42, 0x69, 0x61, 0x73, 0x41, 0x64, 0x64, 0x2F, 0x52, 0x65, 0x61, 0x64, 0x56, 0x61, 0x72, 0x69, 0x61, 0x62, 0x6C, 0x65, 0x4F, 0x70, 0x00, 0x00, 0x00, 0x01, 0x00, 0x00, 0x00, 0x05, 0x00, 0x00, 0x00, 0xAA, 0xFF, 0xFF, 0xFF, 0x00, 0x00, 0x00, 0x01, 0x10, 0x00, 0x00, 0x00, 0x10, 0x00, 0x00, 0x00, 0x03, 0x00, 0x00, 0x00, 0x38, 0x00, 0x00, 0x00, 0x24, 0xFF, 0xFF, 0xFF, 0x29, 0x00, 0x00, 0x00, 0x73, 0x65, 0x71, 0x75, 0x65, 0x6E, 0x74, 0x69, 0x61, 0x6C, 0x2F, 0x64, 0x65, 0x6E, 0x73, 0x65, 0x5F, 0x31, 0x2F, 0x42, 0x69, 0x61, 0x73, 0x41, 0x64, 0x64, 0x2F, 0x52, 0x65, 0x61, 0x64, 0x56, 0x61, 0x72, 0x69, 0x61, 0x62, 0x6C, 0x65, 0x4F, 0x70, 0x00, 0x00, 0x00, 0x01, 0x00, 0x00, 0x00, 0x20, 0x00, 0x00, 0x00, 0x00, 0x00, 0x16, 0x00, 0x18, 0x00, 0x14, 0x00, 0x00, 0x00, 0x10, 0x00, 0x0C, 0x00, 0x08, 0x00, 0x00, 0x00, 0x00, 0x00, 0x00, 0x00, 0x07, 0x00, 0x16, 0x00, 0x00, 0x00, 0x00, 0x00, 0x00, 0x01, 0x10, 0x00, 0x00, 0x00, 0x10, 0x00, 0x00, 0x00, 0x02, 0x00, 0x00, 0x00, 0x28, 0x00, 0x00, 0x00, 0x90, 0xFF, 0xFF, 0xFF, 0x19, 0x00, 0x00, 0x00, 0x73, 0x65, 0x71, 0x75, 0x65, 0x6E, 0x74, 0x69, 0x61, 0x6C, 0x2F, 0x64, 0x65, 0x6E, 0x73, 0x65, 0x5F, 0x32, 0x2F, 0x4D, 0x61, 0x74, 0x4D, 0x75, 0x6C, 0x00, 0x00, 0x00, 0x02, 0x00, 0x00, 0x00, 0x05, 0x00, 0x00, 0x00, 0x20, 0x00, 0x00, 0x00, 0x00, 0x00, 0x16, 0x00, 0x1C, 0x00, 0x18, 0x00, 0x00, 0x00, 0x14, 0x00, 0x10, 0x00, 0x0C, 0x00, 0x00, 0x00, 0x00, 0x00, 0x08, 0x00, 0x07, 0x00, 0x16, 0x00, 0x00, 0x00, 0x00, 0x00, 0x00, 0x01, 0x14, 0x00, 0x00, 0x00, 0x20, 0x00, 0x00, 0x00, 0x20, 0x00, 0x00, 0x00, 0x01, 0x00, 0x00, 0x00, 0x3C, 0x00, 0x00, 0x00, 0x02, 0x00, 0x00, 0x00, 0xFF, 0xFF, 0xFF, 0xFF, 0x06, 0x00, 0x00, 0x00, 0x04, 0x00, 0x04, 0x00, 0x04, 0x00, 0x00, 0x00, 0x1D, 0x00, 0x00, 0x00, 0x73, 0x65, 0x72, 0x76, 0x69, 0x6E, 0x67, 0x5F, 0x64, 0x65, 0x66, 0x61, 0x75, 0x6C, 0x74, 0x5F, 0x64, 0x65, 0x6E, 0x73, 0x65, 0x5F, 0x69, 0x6E, 0x70, 0x75, 0x74, 0x3A, 0x30, 0x00, 0x00, 0x00, 0x02, 0x00, 0x00, 0x00, 0x01, 0x00, 0x00, 0x00, 0x06, 0x00, 0x00, 0x00, 0x02, 0x00, 0x00, 0x00, 0x2C, 0x00, 0x00, 0x00, 0x10, 0x00, 0x00, 0x00, 0x0C, 0x00, 0x0C, 0x00, 0x0B, 0x00, 0x00, 0x00, 0x00, 0x00, 0x04, 0x00, 0x0C, 0x00, 0x00, 0x00, 0x19, 0x00, 0x00, 0x00, 0x00, 0x00, 0x00, 0x19, 0x0C, 0x00, 0x10, 0x00, 0x0F, 0x00, 0x00, 0x00, 0x08, 0x00, 0x04, 0x00, 0x0C, 0x00, 0x00, 0x00, 0x09, 0x00, 0x00, 0x00, 0x09, 0x00, 0x00, 0x00, 0x00, 0x00, 0x00, 0x09
};

const unsigned int mon_modele_data_len = 6824;
